{"specials": ["<pad>", "<unk>", "[FRASE]", "[DIALOG]", "[HISTORIA]", "[SALU]", "[QA]"], "tokens": ["<pad>", "<unk>", "[FRASE]", "[DIALOG]", "[HISTORIA]", "[SALU]", "[QA]", "\n", "!", ",", ".", "?", "A", "B", "C", "D", "E", "F", "G", "J", "K", "L", "M", "N", "O", "P", "R", "S", "T", "U", "V", "Y", "a", "b", "c", "d", "e", "f", "g", "h", "i", "j", "k", "l", "m", "n", "o", "p", "r", "s", "t", "u", "v", "y", "z", "ú", "—", "▁", "▁s", "es", "▁l", "▁a", "▁—", "en", "▁p", "un", "or", "▁k", "▁un", "▁v", "an", "▁f", "os", "▁m", "la", "ta", "on", "er", "▁le", "▁E", "▁L", "re", "de", "▁t", "▁b", "va", "▁n", "in", "as", "o.", "▁es", "▁la", "a.", "el", "▁su", "ar", "▁U", "▁Un", "▁j", "▁una", "ra", "sk", "▁A", "▁Esk", "is", "▁S", "▁sta", "▁N", "do", "▁Le", "▁no", "▁en", "▁ka", "mp", "▁tu", "to", "▁K", "ri", "o,", "▁vi", "▁so", "ad", "te", "▁ai", "▁de", "ke", "▁po", "et", "ro", "▁sur", "▁am", "al", "▁st", "ve", "▁d", "▁La", "▁an", "ik", "ven", "▁les", "om", "da", "▁si", "▁Ai", "▁unes", "▁kam", "▁amik", "▁fi", "▁fij", "▁g", "▁re", "▁P", "ol", "▁ver", "emp", "ien", "i,", "▁fel", "▁felis", "▁bien", "bi", "orn", "den", "▁ak", "oi", "▁Por", "▁Porke", "at", "ant", "▁V", "▁pa", "▁pet", "tas", "▁kla", "▁Les", "adre", "▁son", "es.", "▁mu", "▁jorn", "▁mi", "▁tuto", "▁per", "▁kon", "▁jorno,", "▁sot", "▁peti", "▁fe", "▁sal", "van", "▁T", "▁va", "mos", "do.", "res", "▁jo", "▁stu", "▁por", "▁pl", "ava", "▁gr", "re.", "▁Tu", "ore", "las", "tor", "▁Una", "▁bien.", "ren", "kela", "▁pers", "▁person", "da.", "▁vos", "era", "go", "▁nos", "▁al", "▁lor", "▁joven", "▁semp", "▁Unes", "▁D", "▁sol", "▁kamin", "▁vero.", "▁Si,", "▁vol", "ando", "▁fra", "▁mun", "▁fin", "▁siv", "▁rein", "▁No,", "i.", "ch", "▁fem", "▁do", "▁dok", "▁doktor", "▁bri", "▁mes", "▁mest", "▁om", "▁lon", "▁kambi", "▁kas", "▁enf", "▁enfant", "▁ves", "▁vesin", "▁poe", "▁studen", "▁rey", "as.", "▁e", "▁brila", "eg", "▁fini", "▁sempre.", "tz", "▁li", "▁el", "▁No", "▁klar", "▁ke", "os.", "▁jen", "pos", "▁as", "▁sali", "▁sk", "tr", "▁mal", "ur", "▁gran", "▁De", "▁bon", "▁O", "▁anda", "der", "▁sa", "i?", "▁mundo.", "veva", "▁Ke", "di", "▁Y", "▁Yo", "▁ro", "▁sivda.", "a?", "▁On", "▁Onde", "▁eli", "▁kamin.", "▁kan", "▁frate", "▁ko", "▁longo", "▁felis.", "▁padre", "▁sore", "ava.", "▁brilava", "▁kasa.", "tan", "▁ome", "▁madre", "▁viveva", "▁poeta", "▁ven", "▁finiva", "▁viven", "▁andava", "▁for", "tes", "▁nad", "▁fa", "▁stan", "▁fijo", "▁o", "▁asi,", "▁aki?", "▁Avan", "▁much", "▁mucho", "▁temp", "▁tempo,", "▁era", "▁mestre", "▁amiko", "▁M", "▁Depos", "▁akel", "▁kambiava.", "▁amika", "▁reina", "▁ma", "la.", "▁fema", "▁fija", "▁El", "▁grande", "▁ri", "▁Ku", "▁pode", "▁Voi", "▁jente", "▁lib", "or.", "a!", "▁Noi", "▁voli", "▁i", "▁klaro.", "▁deve", "▁du", "▁ag", "val", "▁So", "man", "▁kar", "▁ra", "elo", "▁deman", "mo", "▁Ki", "▁akela", "▁person?", "▁Akela", "▁Vos", "▁tu?", "▁be", "▁kom", "▁pla", "to.", "pel", "▁mon", "fon", "▁Nos", "▁nada.", "▁y", "▁Su", "▁komp", "▁Lor", "▁aleg", "▁alegri", "▁Kom", "▁Si.", "▁pra", "▁No.", "▁ank", "▁ankor.", "▁estas", "▁Kla", "▁Klaro", "▁si.", "be", "▁Komo", "tar", "▁bas", "▁par", "▁kor", "ens", "▁bl", "▁famo", "▁famoz", "▁fu", "▁van", "te.", "▁Mi", "aj", "des", "pa", "▁esp", "▁viaj", "o?", "▁mar", "▁kre", "um", "ans", "▁imp", "▁impor", "ir", "ard", "esta", "▁san", "raval", "ravaly", "▁debi", "▁debil", "▁travaly", "adres", "▁mor", "▁pov", "ok", "e.", "▁dor", "▁br", "▁sus", "ent", "det", "▁esper", "ed", "ris", "▁rap", "▁rapi", "▁ric", "▁tris", "tra", "oly", "▁voi", "antos", "▁pi", "▁roj", "▁di", "▁tre", "▁porta", "ores", "ola", "▁Kuantos", "o!", "▁En", "▁Eli", "▁jun", "▁kans", "▁importan", "▁Elas", "▁len", "▁oy", "▁Sot", "▁agor", "▁yer", "antas", "▁mala", "de.", "▁neg", "▁mer", "▁Ela", "▁Kuantas", "▁Sur", "▁pais", "▁kont", "ar.", "▁brun", "▁blan", "▁blank", "▁kamp", "▁pon", "▁stra", "▁palas", "▁studi", "▁jard", "▁jardin", "▁merc", "▁ta", "▁plaz", "▁fen", "▁fenet", "ze", "ato", "▁sabi", "pren", "osin", "ink", "▁las", "▁tok", "▁pro", "▁profon", "▁stre"], "merges": [["▁", "s"], ["e", "s"], ["▁", "l"], ["▁", "a"], ["▁", "—"], ["e", "n"], ["▁", "p"], ["u", "n"], ["o", "r"], ["▁", "k"], ["▁", "un"], ["▁", "v"], ["a", "n"], ["▁", "f"], ["o", "s"], ["▁", "m"], ["l", "a"], ["t", "a"], ["o", "n"], ["e", "r"], ["▁l", "e"], ["▁", "E"], ["▁", "L"], ["r", "e"], ["d", "e"], ["▁", "t"], ["▁", "b"], ["v", "a"], ["▁", "n"], ["i", "n"], ["a", "s"], ["o", "."], ["▁", "es"], ["▁l", "a"], ["a", "."], ["e", "l"], ["▁s", "u"], ["a", "r"], ["▁", "U"], ["▁U", "n"], ["▁", "j"], ["▁un", "a"], ["r", "a"], ["s", "k"], ["▁", "A"], ["▁E", "sk"], ["i", "s"], ["▁", "S"], ["▁s", "ta"], ["▁", "N"], ["d", "o"], ["▁L", "e"], ["▁n", "o"], ["▁", "en"], ["▁k", "a"], ["m", "p"], ["▁t", "u"], ["t", "o"], ["▁", "K"], ["r", "i"], ["o", ","], ["▁v", "i"], ["▁s", "o"], ["a", "d"], ["t", "e"], ["▁a", "i"], ["▁", "de"], ["k", "e"], ["▁p", "o"], ["e", "t"], ["r", "o"], ["▁su", "r"], ["▁a", "m"], ["a", "l"], ["▁s", "t"], ["v", "e"], ["▁", "d"], ["▁L", "a"], ["▁a", "n"], ["i", "k"], ["v", "en"], ["▁l", "es"], ["o", "m"], ["d", "a"], ["▁s", "i"], ["▁A", "i"], ["▁un", "es"], ["▁ka", "m"], ["▁am", "ik"], ["▁f", "i"], ["▁fi", "j"], ["▁", "g"], ["▁", "re"], ["▁", "P"], ["o", "l"], ["▁v", "er"], ["e", "mp"], ["i", "en"], ["i", ","], ["▁f", "el"], ["▁fel", "is"], ["▁b", "ien"], ["b", "i"], ["or", "n"], ["d", "en"], ["▁a", "k"], ["o", "i"], ["▁P", "or"], ["▁Por", "ke"], ["a", "t"], ["an", "t"], ["▁", "V"], ["▁p", "a"], ["▁p", "et"], ["ta", "s"], ["▁k", "la"], ["▁L", "es"], ["ad", "re"], ["▁s", "on"], ["es", "."], ["▁m", "u"], ["▁j", "orn"], ["▁m", "i"], ["▁tu", "to"], ["▁p", "er"], ["▁k", "on"], ["▁jorn", "o,"], ["▁so", "t"], ["▁pet", "i"], ["▁f", "e"], ["▁s", "al"], ["v", "an"], ["▁", "T"], ["▁v", "a"], ["m", "os"], ["d", "o."], ["r", "es"], ["▁j", "o"], ["▁st", "u"], ["▁p", "or"], ["▁p", "l"], ["a", "va"], ["▁g", "r"], ["re", "."], ["▁T", "u"], ["or", "e"], ["la", "s"], ["t", "or"], ["▁Un", "a"], ["▁bien", "."], ["r", "en"], ["ke", "la"], ["▁per", "s"], ["▁pers", "on"], ["d", "a."], ["▁v", "os"], ["er", "a"], ["g", "o"], ["▁n", "os"], ["▁a", "l"], ["▁l", "or"], ["▁jo", "ven"], ["▁s", "emp"], ["▁Un", "es"], ["▁", "D"], ["▁so", "l"], ["▁kam", "in"], ["▁ver", "o."], ["▁S", "i,"], ["▁v", "ol"], ["an", "do"], ["▁f", "ra"], ["▁m", "un"], ["▁f", "in"], ["▁si", "v"], ["▁re", "in"], ["▁N", "o,"], ["i", "."], ["c", "h"], ["▁fe", "m"], ["▁", "do"], ["▁do", "k"], ["▁dok", "tor"], ["▁b", "ri"], ["▁m", "es"], ["▁mes", "t"], ["▁", "om"], ["▁l", "on"], ["▁kam", "bi"], ["▁k", "as"], ["▁en", "f"], ["▁enf", "ant"], ["▁v", "es"], ["▁ves", "in"], ["▁po", "e"], ["▁stu", "den"], ["▁re", "y"], ["as", "."], ["▁", "e"], ["▁bri", "la"], ["e", "g"], ["▁fin", "i"], ["▁semp", "re."], ["t", "z"], ["▁l", "i"], ["▁", "el"], ["▁N", "o"], ["▁kla", "r"], ["▁k", "e"], ["os", "."], ["▁j", "en"], ["p", "os"], ["▁a", "s"], ["▁sal", "i"], ["▁s", "k"], ["t", "r"], ["▁m", "al"], ["u", "r"], ["▁gr", "an"], ["▁D", "e"], ["▁b", "on"], ["▁", "O"], ["▁an", "da"], ["d", "er"], ["▁s", "a"], ["i", "?"], ["▁mun", "do."], ["ve", "va"], ["▁K", "e"], ["d", "i"], ["▁", "Y"], ["▁Y", "o"], ["▁", "ro"], ["▁siv", "da."], ["a", "?"], ["▁O", "n"], ["▁On", "de"], ["▁el", "i"], ["▁kamin", "."], ["▁k", "an"], ["▁fra", "te"], ["▁k", "o"], ["▁lon", "go"], ["▁felis", "."], ["▁p", "adre"], ["▁s", "ore"], ["ava", "."], ["▁brila", "va"], ["▁kas", "a."], ["t", "an"], ["▁om", "e"], ["▁m", "adre"], ["▁vi", "veva"], ["▁poe", "ta"], ["▁v", "en"], ["▁fini", "va"], ["▁vi", "ven"], ["▁anda", "va"], ["▁f", "or"], ["t", "es"], ["▁n", "ad"], ["▁f", "a"], ["▁st", "an"], ["▁fij", "o"], ["▁", "o"], ["▁as", "i,"], ["▁ak", "i?"], ["▁A", "van"], ["▁mu", "ch"], ["▁much", "o"], ["▁t", "emp"], ["▁temp", "o,"], ["▁", "era"], ["▁mest", "re"], ["▁amik", "o"], ["▁", "M"], ["▁De", "pos"], ["▁ak", "el"], ["▁kambi", "ava."], ["▁amik", "a"], ["▁rein", "a"], ["▁m", "a"], ["la", "."], ["▁fem", "a"], ["▁fij", "a"], ["▁E", "l"], ["▁gran", "de"], ["▁", "ri"], ["▁K", "u"], ["▁po", "de"], ["▁V", "oi"], ["▁jen", "te"], ["▁li", "b"], ["or", "."], ["a", "!"], ["▁N", "oi"], ["▁vol", "i"], ["▁", "i"], ["▁klar", "o."], ["▁de", "ve"], ["▁d", "u"], ["▁a", "g"], ["va", "l"], ["▁S", "o"], ["m", "an"], ["▁k", "ar"], ["▁", "ra"], ["el", "o"], ["▁de", "man"], ["m", "o"], ["▁K", "i"], ["▁a", "kela"], ["▁person", "?"], ["▁A", "kela"], ["▁V", "os"], ["▁tu", "?"], ["▁b", "e"], ["▁k", "om"], ["▁p", "la"], ["t", "o."], ["p", "el"], ["▁m", "on"], ["f", "on"], ["▁N", "os"], ["▁nad", "a."], ["▁", "y"], ["▁S", "u"], ["▁ko", "mp"], ["▁L", "or"], ["▁al", "eg"], ["▁aleg", "ri"], ["▁K", "om"], ["▁S", "i."], ["▁p", "ra"], ["▁N", "o."], ["▁an", "k"], ["▁ank", "or."], ["▁es", "tas"], ["▁K", "la"], ["▁Kla", "ro"], ["▁si", "."], ["b", "e"], ["▁Kom", "o"], ["ta", "r"], ["▁b", "as"], ["▁p", "ar"], ["▁k", "or"], ["en", "s"], ["▁b", "l"], ["▁fa", "mo"], ["▁famo", "z"], ["▁f", "u"], ["▁v", "an"], ["te", "."], ["▁M", "i"], ["a", "j"], ["d", "es"], ["p", "a"], ["▁es", "p"], ["▁vi", "aj"], ["o", "?"], ["▁m", "ar"], ["▁k", "re"], ["u", "m"], ["an", "s"], ["▁i", "mp"], ["▁imp", "or"], ["i", "r"], ["ar", "d"], ["es", "ta"], ["▁s", "an"], ["ra", "val"], ["raval", "y"], ["▁de", "bi"], ["▁debi", "l"], ["▁t", "ravaly"], ["ad", "res"], ["▁m", "or"], ["▁po", "v"], ["o", "k"], ["e", "."], ["▁d", "or"], ["▁b", "r"], ["▁su", "s"], ["en", "t"], ["de", "t"], ["▁esp", "er"], ["e", "d"], ["r", "is"], ["▁ra", "p"], ["▁rap", "i"], ["▁ri", "c"], ["▁t", "ris"], ["t", "ra"], ["ol", "y"], ["▁v", "oi"], ["ant", "os"], ["▁p", "i"], ["▁ro", "j"], ["▁d", "i"], ["▁t", "re"], ["▁por", "ta"], ["or", "es"], ["o", "la"], ["▁Ku", "antos"], ["o", "!"], ["▁E", "n"], ["▁El", "i"], ["▁j", "un"], ["▁kan", "s"], ["▁impor", "tan"], ["▁E", "las"], ["▁l", "en"], ["▁o", "y"], ["▁So", "t"], ["▁ag", "or"], ["▁y", "er"], ["an", "tas"], ["▁ma", "la"], ["de", "."], ["▁n", "eg"], ["▁m", "er"], ["▁E", "la"], ["▁Ku", "antas"], ["▁S", "ur"], ["▁pa", "is"], ["▁kon", "t"], ["ar", "."], ["▁br", "un"], ["▁bl", "an"], ["▁blan", "k"], ["▁ka", "mp"], ["▁p", "on"], ["▁st", "ra"], ["▁pa", "las"], ["▁stu", "di"], ["▁j", "ard"], ["▁jard", "in"], ["▁mer", "c"], ["▁", "ta"], ["▁pla", "z"], ["▁f", "en"], ["▁fen", "et"], ["z", "e"], ["a", "to"], ["▁sa", "bi"], ["p", "ren"], ["os", "in"], ["in", "k"], ["▁l", "as"], ["▁t", "ok"], ["▁p", "ro"], ["▁pro", "fon"], ["▁st", "re"]]}